00bd
0151
00ff
ff96
ffa9
0083
0094
00e0
febe
fe7f
0028
0066
004c
0014
ffd7
ff77
ffed
01ba
00e3
0199
002b
fff8
00a9
018f
0139
01a0
016d
fff0
fecb
fd9c
01a5
00d9
0067
ff19
fcc4
0145
0025
ff9a
fde2
fe7e
0025
ff4d
fe71
fe5a
fecf
ff6a
fe6f
feb5
ff46
ffd4
011e
0104
017d
00bb
ff92
00da
00e8
0051
0012
fea9
016f
0114
fffd
fec2
fe6b
0088
009c
ff97
ff79
feb4
0090
0086
ff93
0020
fecd
0097
014f
00a2
007d
01d7
0146
0156
00b3
0118
0014
ff9c
ff92
0055
ffd0
ff21
fea2
ff83
fead
fe8c
ff8a
ff2f
fef7
feb9
000a
ffda