00d9
010f
0125
0142
00cc
0116
0099
0000
0062
009a
0096
ffcd
00a8
0029
0075
001d
000c
ffba
0003
006f
ff35
fefb
0005
000f
000f
006e
ff9d
ff31
ff7b
fef7
ff74
ff67
fe9a
ff44
ff5f
ff93
ff38
ffbd
ffcf
004e
ff8a
ff0e
fff6
00b7
0081
ff62
ff15
0092
0065
0067
002f
005f
0005
ff93
ff0b
fffd
0023
ffc8
ffad
fee8
00d6
00f1
00a9
ffc4
ffc0
0102
009e
0018
005f
0093
ffed
0032
00b2
0056
0014
fec8
ff78
011c
008a
ff60
ff8e
ffd8
00b7
0085
ffa4
fe5e
ff71
ff69
fe93
fecc
ff98
fef4
febc
ff75
ffba
0015
ff00
fed7
ffd7
ff9c
0021
0059
00cd
00b1
004e
ffff
ffae
ffd1
00fe
ffe6
001e
0030
ff7d
ff93
0077
ffc7
007b
ffcb
feae
ff87
00f7
009a
0085
0029
ffde
fffe
ffe0
ffff
fed2
fe86
ffdf
0008
007a
00d4
ffea
0022
00b2
00e0
00b1
00a7
fecc
ff44
fff1
00bf
008e
fcde
fe14
fece
0013
00a1
0076
0056
0015
0023
ffe6
00ad
000f
0097
ffcc
007f
0004
0021
ff6b
0012
006c
ff9c
ffdb
ff7d
ff47
ff8d
fed2
fe33
fee8
ffcc
ffec
006c
ff92
fffa
ffe4
0041
ff29
0083
0048
00ce
00e7
ff50
0072
00af
00e9
0108
ff63
00b5
01c6
008e
0090
0094
010e
011e
0093
ff35
003c
ffcd
ff55
ff9b
ff5c
00bd
009a
ffd3
ffa9
00ce
006c
0007
001e
ffb4
ffdf
0015
0086
00a6
ffb7
009e
011d
00e1
0051
00c1
007c
00ec
006b
0042
007d
00d5
0055
ffa7
00a0
009b
0100
0041
0004
00d9
0102
ffce
00ba
003a
fff1
ffa3
ff33
fe78
fd6e
fddd
ff46
ffdb
018d
007a
fff6
ffc2
ff7d
00ec
ffe6
0049
00bb
0087
0087
015c
011c
00f7
0076
01c6
0150
00f5
00e8
00af
0047
ffdc
ff2a
ff5d
ffbf
ff9e
ff2c
ff38
ff15
ff47
fe99
fed1
fee0
003f
002c
fe06
ff22
ff63
ffd9
ffb8
fe4b
fe33
fe95
ff1c
ffdf
fe22
febc
ff96
001e
010e
0038
ffa2
0027
001d
ffb9
ffcf
ffd4
0021
00a0
0043
ffef
ffed
fffc
0052
ff96
ff5f
fffb
009b
0018
ff6a
ff16
0045
ffc9
ffe9
ffa5
fff8
00d2
01d7
00f4
ffad
ffb4
0146
0151
0121
00c9
001e
00be
004e
0092
00c5
0068
0052
ff58
ff13
ff77
004a
00af
ffc2
ff87
fef2
0028
ffef
0014
ffad
ffdd
ffb2
ff90
00a4
0019
ffed
fff4
0041
00b1
0088
005d
0071
0046
00bb
00b5
00f4
008f
0102
010a
00c4
fff5
ffcb
ffce
ffda
0038
00e2
0180
00d6
005e
01c2
0272
0076
ff92
0036
01ba
01b8
ffd2
ff56
fff5
008f
01a1
ff67
ff3f
ffff
0024
00b2
00a6
0034
ffd2
ff49
0001
00ba
004d
ffe9
0088
ffd6
ffc4
ffa5
0024
008a
009f
ffd8
004a
009d
00d2
000c
ffd8
0006
ffe7
0022
ff67
fe6d
fe2b
fe77
ff76
ff8e
fed4
fff6
0123
0019
ff76
0191
01d2
0119
ffe8
ffba
0197
0100
00f9
004a
ff58
017c
008c
fffc
ffdd
ffa8
feab
fee6
ff19
feff
ff9e
fffa
ffcd
ffac
0015
ffca
ffb3
000f
0076
0074
0064
007b
006a
0112
0102
00df
0118
0134
0149
0129
0081
0048
ff57
fff6
fefa
fdbf
ffbc
febe
fe36
fe0f
ff39
fffe
fef6
febe
fff3
0062
ff55
ff5d
ff8f
00ca
00ab
0033
003c
ffc6
002a
0063
ff9d
007b
00b6
00cd
002e
001c
0013
0004
008f
00c8
006d
0077
00a1
0011
0055
007c
0033
00f4
0073
fff6
0026
014b
00c4
00d6
001f
fffc
0028
ff1d
ff41
ff07
ffa1
0010
ffdb
ff76
ff35
0077
0022
0006
fee2
ffe1
0058
ffa1
ffca
002a
002b
ffad
ff79
ff7f
0041
0080
fed0
ff08
fec0
ff7d
ff97
ff98
ffd4
ffc5
ff96
ff72
0025
ffcf
ff67
ff8e
fefe
00a7
0070
0018
ff6b
ff16
0010
0008
ffb2
ffbd
00c0
ffcc
0090
002b
0183
0157
0047
010d
0094
0128
0155
006c
0045
011b
00a2
fff9
ff71
003d
0122
00ad
ffaa
ff67
ff40
0094
00b5
0060
00fc
ffef
fff4
ff5c
0015
0145
00fd
0057
ff49
ff80
0113
00e0
00ee
ffda
fef6
0052
008d
00c1
00d0
ff94
fea7
ff51
ffeb
0009
0014
ff94
ff92
005c
007d
0032
ffa4
ff93
ff90
0045
001e
fe8c
fdf9
ff0b
ffab
0029
fe51
fe06
fe82
ffa8
0029
0046
fff3
ff20
ffb2
ffad
0091
ffd6
0044
005d
fff1
0088
0112
0054
000b
0086
00d2
00d7
00d6
0002
ffc1
ffda
ff85
ff34
ffab
ffa4
ff1a
fedf
fea3
fef9
ff76
fe27
ff7f
ffdc
0048
ffd5
fea0
fec8
ffbc
ffd2
0091
fefb
ff1a
ff74
0048
00a9
ff9c
000b
ffcb
00d2
00cf
010f
009d
0074
0088
01c3
fff1
ffe7
004a
0010
00ac
0033
ff2a
fff9
002f
00c2
ff6f
feff
ff5a
002a
013e
0036
febb
ff36
00ca
0148
ffd9
ff3c
ffcf
00a6
00eb
ff57
ff56
fe1d
ff3a
ff30
ffd0
00ae
0047
000d
ffd8
ff9d
005b
0059
000e
fff2
0013
ffcb
010d
ffff
ff57
0050
0069
00e2
00e8
fff8
ff98
ff63
ff9f
005c
fff4
ff29
ff4c
0013
00a5
00e1
ff6b
ff69
007e
0100
0116
ff4b
ffd3
00d4
006a
0132
003e
009b
0157
0109
0092
0031
0061
00be
ff77
fe3a
00f4
00ac
ffe2
ff24
fed5
01ce
005d
ffd3
fe49
fec6
0197
0037
fe92
ff9c
ff00
006d
feb7
fef4
ffab
ffeb