ff90
fffe
0025
013f
ffa2
016f
ffc4
001f
ffdd
0004
005d
005d
0054
ffe3
009a
ff73
ff69
000a
ff00
fef4
005e
0106
ff48
010b
00f6
00d9
002f
ff97
0070
ff96
ff8a
ff93
01c7
ff44
0147
00d8
fec5
011d
fff5
ff94
fe09
008b
01ef
00e2
0052
016d
0035
ff84
ff45
ff13
fe77
00c9
0039
0100
ffd8
00fd
feb4
01d8
ff68
00b4
0010
ff58
ffae
fef1
fec6
ffd7
ff6c
ff30
0028
ff7e
ff94
0115
fff4
00b6
ffb5
0040
0025
ff95
0132
0073
0026
fffb
00d4
fef8
0017
ff2a
00a8
fee3
fe5b
0023
ff82
018a
ff37
ff24
ffb5
0108
0078
fe73
fefa
00f6
ff58
0091
00e2
ff86
fddd
ffd6
ffc8
ffd9
0044
ff86
0029
0072
ff03
007c
0029
002c
009a
0096
ff2a
0069
00cb
00fb
fec9
009a
ff8f
ff5f
0060
005a
ff88
ffcd
0068
00a4
006b
0078
ff27
0067
fe37
009d
fff7
007f
ff6b
ffa5
00da
00b5
ffaa
ffb8
ffb7
ff5a
0036
005f
ff9d
00fd
fef5
0096
ff99
0170
ff7a
002a
004f
ff53
ffee
003d
0116
00ea
fe5b
014b
010f
ff6b
feeb
0001
00b1
ffc1
0068
0077
0007
ffe9
0039
fed8
fe80
0035
ffb6
0064
ff66
ffaf
0131
006c
ffe2
ffd8
ff5f
ffb6
ffd6
ff3e
ff4c
ffd0
fff6
00d5
fdf1
007f
ffc9
ff08
ff1a
006b
00e8
00c8
0021
01c7
00db
005a
00e4
ff2f
fe35
ffbd
000a
ffc1
ffba
feb7
fea3
0044
00c1
0194
ffc5
003d
fe6d
ff10
ffbc
ff77
0015
0045
ff74
ffb1
fee7
0023
00a2
0008
ff69
005f
ff75
ff99
00f6
0045
ff75
00ab
0102
ff75
ff71
ff7d
005e
ffcd
ff5e
00d6
ffe7
008f
ffd2
fff8
00ce
01c8
fe7f
ffd2
ffbf
0198
fee2
007c
002f
ffc6
fe5c
ff84
0091
0039
0054
0021
0085
003d
0088
ffe7
feeb
ffd6
00a0
0001
ff32
008d
006f
0006
ff2b
ffef
ff38
ff83
fff2
ff99
0091
fee3
0070
0001
ff3e
ff9f
fffa
ff95
fedc
016c
00d6
008b
0044
ff89
01b4
00ec
ff9c
ff2c
00a0
00d4
0060
ff67
0089
0110
0086
003a
0026
004d
ff42
ffc0
0057
ffbb
ff1f
fed4
ff3b
003c
ffcb
0043
005e
00b7
001b
ff9b
ffc4
ffd2
001d
009c
0004
0030
004c
006c
00da
fede
0056
00f4
ffc8
ffb2
fed9
0029
ffee
00f4
000e
00a2
fffb
009a
00a2
fe8f
0031
002a
ff37
0010
ffe9
ff78
ff45
ff8a
0044
0120
fff6
003c
007c
0028
ffc8
fff4
0014
006c
0075
ffcd
001c
0067
00bf
0023
0011
fffa
ff91
ff51
fee7
0132
0087
ff3f
014a
008f
00ca
ffcc
004d
ffc4
0061
0086
ffd1
008f
ff31
ffb4
0097
ff92
003a
007b
00e3
0072
fee3
00f1
0057
00c4
0050
ffc7
00bc
00a8
002c
ff61
003e
0054
001a
0111
ff3c
0116
ffa7
0097
0055
ffd2
fee4
ffd6
0169
ff8b
01ac
ffd9
0122
ff9f
fff3
0046
fe98
00b9
ff9f
ff4f
0089
013e
01d0
0045
ff40
ff23
ff92
ff68
0004
0033
ff3e
004c
00b2
0072
feb4
003b
ffec
ff37
ff98
ff9b
006d
ffb5
006f
0191
015e
005b
0004
0028
ffb5
ff46
ffbd
00a3
0007
0016
fea4
00a6
ffa3
fffb
0078
ffe5
ff68
006e
005d
febd
0073
0059
ff4d
fee8
003a
000c
0120
0066
ff75
ff6a
003e
fff0
ff1b
fff1
009b
ffaf
00fb
ffe5
0019
ff75
feea
0012
ffdf
0091
000d
fff1
0022
0034
00e3
018b
ffda
ff3d
ffce
0171
feec
0034
0030
ffe5
fef6
ff26
0003
0033
013e
ff74
ffa7
00d6
ff6b
ff8b
ffe6
0040
0105
0042
ff2e
ffcc
013d
001b
ffa0
ffd5
007d
ff6a
0070
0073
ffc9
ff1e
005e
ffba
ff02
ffea
000b
00c7
fe7a
0172
ffb8
0085
016b
ff68
006c
ffbe
ff94
005b
ffe9
016f
ff91
0039
009b
004d
fff0
ff85
0014
ff2a
0085
ffc7
0078
001e
ff66
ff4e
0129
ff1a
ffa1
ff30
ffb4
0050
0037
ffe4
ff67
ffc1
ffc6
0100
ffdc
0088
00d6
ffe8
006b
ffba
0052
0008
001e
ff44
ffa8
0168
ffb0
0090
0079
00a5
ff19
0108
0015
ff85
ff59
ffe1
ffe5
00e6
001c
0020
0069
0088
0015
01ad
fefb
0016
0157
0099
ff11
0011
ff36
002e
00a7
ff6d
ffbe
ffae
001d
ff84
ff0e
ffbb
ff91
ffab
ff5d
ffdf
ffa7
fff2
0145
0091
001b
ffd8
ffc9
0055
0081
ff3b
ff30
0047
fffd
ffd6
ff40
ff70
ffbc
00e0
ffe5
ffca
ff5e
00d9
004a
0094
000c
009c
00fe
0070
ffb0
004c
008d
002e
ff25
00ef
feac
00cc
ff47
00f5
0076
001d
ff7e
002d
0053
009e
0123
ff75
00dd
ffd4
ffe4
0007
ff44
004c
ffc9
feb5
ff98
00b5
01d5
ff60
0069
ff06
ff07
003a
00b2
0040
0010
0058
007e
ff9d
fff4
009a
ff60
003e
ffec
ffcf
0062
005a
fff5
0042
00c7
000e
012e
0018
ff4e
ff85
0068
ffb2
0083
ffe3
ff9c
00a7
000f
0032
0073
fff5
ff72
ffc4
0009
fe25
0167
007a
ff7a
0056
003f
0046
00af
002d
ff60
ff9e
00e2
0118
fdec
ffd3
fffa
ff48
fff8
00d1
ff37
0085
0036
ffc9
00b6
0178
ff89
00e8
0007
fff3
ff74
ff92
ffb6
fdc7
0083
ff8f
ff3e
00f4
ff79
ffc9
ff4f
fee0
00a4
feb8
0037
0036
001a
fffc
ffc8
0065
00bb
00e2
ffa9
ff42
ff23
0130
0120
ffa4
fff0
00ec
fff7
ffec
0126
00a4
00b5
fec7
ff52
00b8
ff14
ff4c
00d8
ff85
ffeb
ffb4
ffba
0120
0016
010c
002d
ffc1
ffb2
00cd
ff00
ffaf
00c7
0018
ff8c
ff66
ffc8
002a
ff5b
ff67
ffd2
ff88
ffd4
ff8c
001b
ff59
fff0
00c5
ff42
ff25
001c
0031
00b3
00d0
ff70
003d
ffe5
00ed
0062
007b
0049
008f
0044
0011
0000
0013
ff3b
ff42
0046
010a
ff0c
ffde
ff94
fff7
0063
ffe0
00c4
fe71
000b
001a
ff3c
ff2c
0009
ffaf
00f3
0157
ffdc
001d
fed5
ffba
004b
ff7c
00c4
0130
0160
ffc8
00a8
ffd1
ff64
ffbd
febc
ff26
0126
fff7
ff93
009e
ff7f
0127
ffe8
001b
ff49
fff1
0012
ffc9
0086
ff82
ffb6
001c
ffa4
ff4a
ffd7
0073
ff58
ffc5
0104
002b
0053
ffef
ffbc
ff63
fefb
ff5d
00f0
febb
006e
00fd
ff24
ff98
ffc0
0082
ff12
00d7
fe7e
0064
ff24
0037
0036
ffa2
007f
ffd2
00b2
ff97
00ae
ff54
0140
ff61
005a
ffe8
ff9c
0016
ff3f
ffd3
ffb7
0108
0006
ffa2
00dd
fff8
fff5
ff57
0184
ffd7
ffab
00ba
011b
fed8
000c
0076
0014
005f
ff37
0007
00eb
000b
ff04
ffe5
012c
0019
00d6
0045
0053
ff88
001c
0008
ff20
00f7
0049
ff6a
00a2
0039
ff97
ffaa
015f
00b1
0067
fd71
0247
0102
ffe7
009d
ffb9
00f1
0145
ff33
00bf
ff08
0014
00c9
fda2
ff75
0128
fe34
ff67
00c9
ff03
ff77
0004
010a
018b
ff37
ffce
0167
ff32
0087
ff36
00c8
ff4d
00b0
fed7
00e5
ffc6
008c
ff56
007b
ffcb
0069
0069
007d
0027
ffe4
005e
010a
ff4e
009e
ff90
0011
00f2
0038
ff9e
007e
fef6
ffd5
ff21
ff94
ff49
008f
0037
0056
013a
007b
ffcf
ff2a
fdfb
ff24
00c5
ff80
ff97
ffc6
0164
ff89
ff69
0068
0068
ff90
00ef
ff63
002c
ffad
0001
000c
0064
fec6
ff6d
006b
00d3
ffc5
ff91
ffce
004b
fef7
fe5c
ff53
ff7f
008a
0127
0022
0016
0170
00db
007d
ffd0
ffde
0136
ffce
0160
004b
00a2
fff6
0237
ffe9
00a9
fe0d
ff66
ffe3
0046
ffb8
ff56
fffc
0098
ffbd
002f
0129
009f
0022
ff97
ffe1
00cd
ffdf
00b4
003c
ff6d
00bd
ff8a
ffe0
0055
fff9
ffd1
0052
ff81
ff8d
ff8e
ffdc
ff70
0067
008a
ffd7
ff49
fffa
0063
00bc
ffb4
ff40
fffe
003c
fffb
00a6
001a
fff2
00af
0120
ff17
0038
ffc9
0031
ff27
ffbc
000a
006e
ff33
ffd0
0043
0078
011d
0059
ff30
00b7
ffe6
00c2
fecb
0057
00f9
004d
ff86
ff1c
ffff
ff86
00bf
009a
ffa3
fff1
ff37
003f
0055
0080
00cb
ff7f
001b
009f
00e0
009a
000f
ff69
0008
fffd
ffb8
0027
00a2
ffc1
ff67
00af
0092
ffcf
0082
007e
0017
ff8a
fffe
ff22
fef7
ff4e
ffa0
01a0
fe02
ff04
ff43
0028
ffcf
ffd3
0023
00f4
00cf
fff6
019c
fffb
009c
ff89
ffef
ff38
004a
fe78
0059
ffe2
ff70
ffbc
00c9
002b
0097
0062
0066
010e
0015
fff5
ff78
00b9
00f2
0041
ff6c
0005
ff6a
ff79
007a
0084
ffa5
0096
ffc0
0017
ff84
0107
00f2
ff9e
0001
00b0
ffd2
ffc3
ffba
ffec
00a7
ff64
ffeb
ffef
0024
00a1
ff12
ffa3
ff62
ff80
ff88
0012
005d
fff1
ff95
0011
0026
0048
ffe1
ffd3
00ed
008e
0053
006a
002b
ff7a
004b
ffc4
ff74
fff2
ff5c
0075
001e
ffdc
ffb1
ffce
ffa5
007a
ff97
0060
ff9b
000b
ffac
ffcb
0040
fff4
ff48
ffc4
0080
ff9a
0032
0032
0106
ffa0
ffba
ffbe
ffef
000e
ffe5
ff7a
006e
fff2
0036
0040
005a
0060
0007
0041
0069
005b
ffa2
fee0
ffad
001a
00c1
007b
005e
00d3
0005
00d0
005c
0040
0145
0036
00d7
0037
0016
0108
0002
010d
005f
ff9a
0014
0024
ff78
0033
ff98
ffdc
ff4b
ff31
ffea
00d0
008d
ff37
005e
ff9f
fffb
ffc6
0003
ff6c
009f
fff9
ffa8
00d0
ffb6
ff8a
ffab
005f
fff0
0017
ff68
0066
ffe9
00c6
0013
ff92
0083
0083
ff94
0056
0046
001c
ffe7
fffc
0074
00f3
0132
006f
ffcf
0063
0042
0009
0057
ff70
fffc
ffbd
0016
00b0
ff0d
0040
ffd5
0091
0048
ffcf
ffaa
ffeb
0030
0090
ff19
0063
00c4
0044
001e
ff5f
ffa1
ffc1
ff86
007c
0050
0064
ffc5
0087
00af
ff8d
fec3
0041
0012
0102
00ab
0035
00d3
0058
ff88
0073
ff6c
ffd4
ff65
ff1d
ffe6
0010
0142
ff5c
ff99
0042
0030
005a
0060
0059
ff47
0013
ff87
0085
fe30
ff97
ff00
006a
ff3c
0030
00a6
ff25
007a
0090
00ba
005b
00cf
ffcb
003d
0030
001c
ff72
00a9
ff78
ffff
ffb5
ffe2
005a
ff5d
0049
0087
017e
ff69
ffa7
007f
0126
0020
ff52
ff64
0013
ffcb
ff00
ffd5
ff95
ff6c
ffce
ffa3
0147
ff8e
005d
000c
feee
0023
ffcf
0010
0058
004d
00c7
00d7
ffff
ff6a
000f
008f
00f1
ff6a
ff84
ff48
fff0
0025
0070
00a9
0128
0051
ffc8
005d
ff96
ff96
0072
007d
00c9
000e
005e
0002
fec4
ffae
0076
ff4d
ff60
0060
ff9a
ff31
ff80
0009
ff79
ff95
fff1
00af
ffe1
0013
0081
fff0
0072
ffed
00d1
ff2a
0042
003c
010f
005c
ffc0
ffd9
0000
ffd5
ffa6
0171
ff90
002b
ffd6
ff56
ffd1
0075
ff43
0061
fffe
ff74
ff31
0027
0026
ffb2
ff0b
ffda
ffca
003f
ffa5
00ac
006b
ff8a
fffa
002d
00aa
008c
008b
ff5e
007c
0090
0045
00dc
ffd3
001a
0026
003e
0071
0054
011f
0043
0050
ffbc
ff9d
0061
009a
00d9
ff30
ff58
fff8
000e
0045
0122
ffb5
005e
00f6
ffcd
0093
ffbb
00a4
ffc6
fff3
0049
00c8
ffc7
00b1
0049
0014
0066
ff77
0082
0040
00a3
ffad
ffdf
ff96
0000
005b
0085
0109
0067
00b2
0003
00ac
ffec
ffe6
0060
0089
0011
ffe0
ff6f
007d
0013
fffb
00a4
0081
00d8
009f
0052
010d
ffbe
000a
0074
008a
ff3c
00ba
ff59
ff90
0055
fffa
004d
00c1
feff
003f
00b1
ff8c
008f
007a
ff10
00da
00c7
0098
00b1
ffab
ffe3
004d
ff78
000f
0086
ff5f
0092
ff89
ff57
007d
ffc8
ff7e
fff9
ff48
ff10
ffc7
ff1a
ff8e
fefc
ff91
ffee
00ec
feb7
0019
0001
00f8
0024
ff70
0059
ff4c
ffa3
ffcc
ff41
ff97
0094
ffd9
00a8
ff89
0048
002d
007b
0065
ff36
00b8
0063
ffa6
ff9e
00aa
0085
0118
00ae
0018
001c
0005
0021
0085
0036
ffdb
0086
ff30
0012
ffb8
ffb1
0071
00d9
0040
fff5
0050
ff94
ff95
ffe7
ffc2
ff63
00ab
0025
00dc
ff7a
0029
0078
ffe0
0069
007d
ff00
0031
ffc1
0073
ff83
000b
0052
0014
0033
004c
ff7b
00a2
ffa0
fefc
0008
ffac
003d
ff4d
0095
ffe2
0001
ff5d
ffcc
010d
0098
ff5a
ffe9
00a3
ff54
0035
ffe4
0106
fff5
ff9f
ff1e
00d1
ff93
ff4b
009a
ff44
0108
fff7
ffd6
0119
0098
ffc3
0079
ffa9
00bc
009f
00fc
0036
003a
ff8e
fffd
ffab
0057
000d
ffe9
ff9e
ffd1
ff2b
ffb5
002b
00be
001b
010d
0036
00b4
ff05
0071
00b4
0012
0124
0015
0043
00f2
003a
ffc2
008b
0018
0053
ff32
0035
ff7d
0005
ffc0
0056
fff2
0076
ffbf
00d9
003d
ff33
0000
00b0
009a
ffb7
ffeb
ffa7
ff97
ff97
ff35
0003
0097
011b
0012
008b
fff1
015b
ff25
ffcb
0033
007f
0135
00cb
0046
0070
ffeb
ffd6
ffef
ff22
00af
ff83
0086
ffe7
ffb7
000f
006e
ffb0
fff5
00ac
000e
ffae
006d
0026
00c4
0035
ff76
ff8e
0056
ff68
ff60
ffba
00ae
002f
ffe9
ff52
00c1
006e
0041
0052
ffec
ff0e
003a
ffde
ffdd
ffe5
fff9
ffd1
fffd
0207
fe71
00fa
ff8f
0069
0001
ffa4
ffee
000d
ffd6
0097
ff6d
006d
0036
00a4
ff99
ff91
ffed
004d
ff5f
ffd9
ffcf
001a
ff8c
ff83
0034
00be
001f
ff5b
0025
0033
ffec
00ac
ffd4
ffc7
ff02
0079
0064
006a
ff29
0073
0085
ff69
ffd5
002f
ff6f
0019
00a6
00aa
00c5
003d
ff5e
0061
006f
00a7
ff4d
0069
ff9f
ffbd
002a
0043
0041
fff1
ffc7
fff9
0101
ffff
0049
00f8
0007
ffbe
ffe9
ffeb
ffe3
ff76
00cf
004e
fff8
ff49
004d
ff43
ff67
fffc
ff84
0038
ffe9
0105
0160
fd5a
ffbb
00d2
0021
0026
fff4
ff7c
ff10
00fc
ff49
ffdb
0063
00cc
ffb7
009b
00a8
00d2
0046
0026
015e
009e
0131
00c6
000b
fed8
000b
015c
0049
ffdc
ffb5
ffda
ffad
ffb2
ff7d
ffce
ff62
ffa3
0027
009e
ff81
0056
00f8
0048
ff77
ffa6
fff7
0088
ff66
001e
0082
0088
0039
ff80
0070
ff40
0001
0107
000b
00d5
0048
00fa
003e
ffe3
ffef
0026
007a
ffb1
007e
00af
006b
fe22
fe79
ff92
fffb
ffb8
035e
00b9
ffaf
ff6c
ff11
ffe2
0022
00c3
ffd8
ff84
ff13
009e
ffdb
003e
00bd
0047
0004
fe6c
ff83
003f
0065
feec
fe67
00c1
0018
0083
0063
ff97
ff90
0057
ffe8
ffd8
0007
ffac
ff7e
ffba
0064
00d4
009c
ffe4
fffb
0055
ffc1
00ba
ff81
ff22
005c
0099
0016
0049
ff86
ffbb
ff2b
006d
ffed
ffb5
007a
005e
0096
fecd
0065
0084
00b4
ffa5
0054
006d
fee3
ffe5
007c
013b
00ca
008f
ffd6
0065
001c
ffc6
0032
000e
0187
003b
fffc
ffac
009a
0015
fe98
00a9
ff74
ffae
fff3
0060
0026
ff9e
ffdf
0087
0087
ff78
fe77
ff1d
007d
0071
ffba
0019
0042
ffba
000c
ff4a
ffa3
ffd2
0033
ffe0
001f
0077
00d7
ff1e
ff4d
ffc1
ffb4
0030
0043
ffc7
ff45
0033
fff7
ff56
fe94
ff53
fec4
0176
00ea
ffe3
ffe6
007b
ff6d
fffc
ffe9
fff3
ffaf
001d
0092
fff3
00c3
00f6
00e3
00ec
00a2
fe7c
0029
fff0
002f
000d
ff79
ff8f
002d
ff3c
ff94
ff75
ffac
00bd
fef0
0006
003e
004c
ffd0
008c
ffca
000e
ffac
0076
ffcd
000d
ffe4
00b2
ffea
fff2
00ad
ff82
0084
0019
00a3
0064
0076
ff8a
ffa8
0063
ff50
ffb7
0087
ffeb
ff6d
fffe
0037
0035
0015
0051
ffa7
0108
ffdd
ffb0
ffbe
00cc
007b
0016
ff73
ff6f
0053
00a8
017e
005c
ffee
00e8
009e
ff9f
001c
ffb9
fea2
ffb6
0051
ffb1
fff6
00da
ffc5
0007
ffc3
ffbe
004e
008d
00d1
0039
ff5b
ffd2
0092
ffde
ffc9
fff4
000b
007c
0059
0093
0054
011f
0082
0063
0075
fffa
00c4
ffd4
00b8
ff80
ff94
ff70
0060
fff4
0084
fffb
ff91
ff30
0129
000a
003b
ffed
ffb2
009b
002a
ffc0
0035
008b
ff8f
00d6
fef8
00ad
0112
0049
ffc1
ffe3
003f
ffc8
00b9
0071
0027
0063
004a
005f
ffc2
ffc5
ff95
ff6d
0088
fffe
ff0e
fffb
0058
ffc8
0071
003e
ffa2
008c
ffae
00d7
fff4
ff84
0042
ffd5
005b
ffcf
0056
0072
ff55
003f
ffd8
ffd1
00a8
0039
ff22
ff6f
0098
ffa2
009f
0003
0043
0029
ff79
0006
ff08
ff93
fff4
0008
0069
0084
0086
0122
ffc7
ff8e
0018
ff92
009d
00c0
ffb8
00d0
ffe6
ff61
ff8f
0002
ffb5
00bd
ff9d
00d7
ffec
0007
ffde
00ac
ffd2
ffb1
005f
0019
009d
fffe
ff95
fff2
0049
00fc
008d
ffb5
ff93
ff98
007a
00ac
ffda
0020
0083
ff3c
0054
ffca
00c6
ff64
ff1d
004f
002e
ffdd
0021
fef8
feb6
ff9b
0031
0143
ffa9
ff7d
0013
009b
fe29
0006
ff80
ffac
008a
004c
0001
007f
003f
0134
0061
00ea
0055
fed8
ffbc
ff0a
ffec
fff0
0093
ff34
ff43
ff2a
fff3
0058
ffde
ffdf
0013
ffc8
fff4
0009
ffae
ff5e
009a
ff26
0011
001f
0033
ff94
009f
00b4
ffed
0120
ffe8
0005
0035
ff4d
ff88
ffc7
0053
0040
0093
ffd1
000a
ffc9
ffed
0064
0082
001d
ffc7
006d
002d
ffe3
ffa5
00a2
ff45
001f
ffb0
0129
ff3c
ff59
feb2
0087
00f9
ffee
00ec
001d
0101
002f
0062
ffee
ffa3
ff4c
ff20
ff62
0095
007f
fed7
003c
003d
ffe7
fffd
000c
00bd
0074
00d0
00cb
ff24
ffd1
ff93
0014
ff77
ff87
ff3f
00c8
ff81
ff6c
0083
008f
0056
fff6
004f
ffc4
ffc5
00a2
0023
ffaa
ff78
005b
ff54
fff3
012c
ffc0
fff8
007a
0074
ffe6
002a
fed0
0003
ffa0
008c
ff57
ff4c
ffad
ff64
ff3f
008e
ff6b
008c
0035
ff2f
00c6
ff7d
003a
004a
012a
ff8c
ffe9
0080
ff8b
ff4e
fff4
ffbf
00ac
fffc
007c
ffe5
ffac
0028
00b1
0014
0136
ffa7
005d
000d
ffd7
0046
ff5f
0021
ff65
ff54
ffba
0065
0045
000a
ffac
ffd8
0089
ffc6
ff5d
0088
ff4d
0059
0066
0047
00b0
000e
ff55
0018
ffa3
0071
009d
0075
fff4
0006
ffca
0027
0081
ff7f
ff65
003a
00ae
ff7f
0088
ffc8
ffe4
ff48
ffc6
ff3f
ffbc
002f
006d
ffff
ff64
ff79
ffe9
00a5
fffa
ffc2
fff6
0065
ff40
ffac
fff7
ff53
00b6
ffff
00b3
0080
ffea
ff76
00ac
00a1
ffbc
0035
ff96
ff6c
002f
00dd
ffd3
fff7
ffa4
fff9
ff2d
ff8f
0046
ffe4
ffee
ff50
ffcf
ffc1
0041
00a3
000e
00fb
00e9
0018
0026
0000
004f
ff9a
ff9e
ff93
ffa0
ffe1
00a2
0060
00fa
ff8b
ffff
ff7b
ffa3
ffef
002b
ffaa
fffd
0069
ff30
0001
0004
003b
ffc7
010a
00b2
ffbd
ffc8
0007
ff1f
00db
ff65
00d9
00a6
ff05
0062
00ec
ff4c
ffeb
ffde
ff9a
ffba
0002
ff95
ffc3
fffa
ffb4
007c
004e
ff8e
ff6e
fff3
ffc2
ff94
0056
0076
ff0c
00be
016e
0094
0002
0001
0082
ffd8
ff4a
004f
ff52
ff32
ffd2
ffe4
ff6e
ff8b
0028
ffbc
003a
003f
ff34
00c8
00c0
febc
0033
ff77
0039
0007
ff1f
00cb
0030
ff96
ff48
0081
ff91
0049
014e
00bd
ff66
0091
ffee
0086
0056
0038
002a
ff76
010f
ff7e
0006
ff82
ff9b
00ea
001e
ff9d
0016
fef7
0039
ffe6
003c
ffec
0010
0050
0028
ffa7
00ea
0127
00d9
00ac
ffce
ff5a
ff99
ffe3
0072
ffca
0105
0083
0072
ffbc
ff33
ff26
fff9
0018
ff43
ffc5
ff30
ffde
ffd3
ff1a
ff42
0016
ff66
0088
ffec
005a
009b
0049
0075
008a
ff8e
002a
fff5
003a
008b
00e4
00fd
ff67
0097
00c6
ff3f
005f
ffba
ff83
0119
003e
ff68
00da
0038
00fd
0066
ff1f
00a1
0097
0003
0064
0020
ff6d
ff7f
002b
0021
ffc7
0119
012e
0015
00fb
0086
0086
fff5
009f
0021
ff36
0000
0095
ff6d
00b9
005b
ffd8
ff96
002c
ff2e
ffab
0052
ff13
ffa5
0055
ff23
ff52
ff5e
ff15
01a6
0063
ffdb
ffc7
0025
ff7f
fff8
fee6
ff87
ffd6
ffd3
001c
ff60
ffd7
fee7
004c
0015
ffd7
00b1
0055
fee3
00a3
0095
fee5
ff9e
ffdb
00ea
ff9c
003e
0087
ff53
ffb0
0048
005a
0118
001f
003d
ffcf
0051
0042
ff30
ffa7
002b
ffd9
ffe0
ffcc
ffab
0045
ff5d
ff31
ff4e
00b8
ff48
0082
ff72
ff22
fe93
003d
ff54
ff72
0074
ff81
0007
002b
ffe4
002f
00a1
ff96
00fb
008c
ffa2
000c
0035
007d
0072
ffa4
ffeb
ff79
0059
fe0b
ffca
0089
ff85
feb3
000f
005c
0077
0020
00b7
fdbb
015d
00bc
fff3
000d
0032
ffc7
00e4
00e8
ff82
fe99
00a9
00b5
ff95
0031
ff75
0188
ff6a
00a9
01f6
006d
ffa4
005f
00bd
fef0
01cc
ff3b
ff75
ff97
0011
0105
ff63
00f7
feb6
009e
ffb0
002a
00f4
0013
00c2
0004
00d1
006b
000b
0001
00d3
00b1
ff64
ff44
ffd3
ff96
ff60
fefa
0062
00be
007a
0104
0030
006b
0128
00d2
ff9b
00a1
0023
0009
ffea
004b
ff0c
ff4a
003e
fee8
ff8f
ffcd
003f
fe2b
019a
005e
007a
fe0b
006d
fe03
ff8c
ffc6
ffcc
ff2c
003a
01ae
0134
ff3c
020a
feaf
00bf
ff7f
ff5c
00a1
008e
ff7f
fede
00cc
ff2b
000c
00a7
00ef
ffd0
0068
002b
ffad
0095
001e
ff7f
ffb1
0039
00c2
002f
00e6
ff44
ffcc
0058
009a
ff51
ff74
ff2b
00af
ff25
006b
ff5f
00da
ff2e
0070
0141
ffe2
ff32
ff69
00b9
0036
01ac
0014
0174
fff0
fe90
0037
ff94
ff07
00bb
ffad
0119
ff39
0112
0026
0018
ff4c
ffea
ffb9
ff1f
ff2a
000c
ff67
ffd9
ff91
0090
ffeb
0032
001a
0045
ff77
00e3
ffaa
0025
003c
ffda
000f
0010
ff4d
00c9
ff7d
fffb
ff00
0044
0057
feea
ff90
ff85
ffc9
0015
004b
006e
ffd7
0052
ffcb
ffe9
fee9
fffd
0088
ff54
ffa4
ff70
ff3a
004f
fec4
ff48
ff56
005a
ffa0
012b
fffb
0069
fe85
ffb2
fe50
ff72
ffc2
003e
ffa4
0002
01b1
00e0
0038
006e
004f
0079
ffc0
ffbc
ffc2
00bf
ffc3
ffee
ffa7
ff5a
ffb9
0098
ffa9
006a
000e
ffd4
00f1
0033
00c0
0006
ff85
005f
015c
002f
ff9c
0097
ff83
0065
ff18
ff8b
ffac
0049
ff17
0024
ff73
0043
ffe0
001e
ff23
0038
00e6
0006
ffb4
009e
00a8
ffbf
0056
0012
ffba
00da
00e2
ff58
006b
ff08
0172
0023
0002
0124
fffc
feec
0033
ff7f
ffcc
0111
0061
0024
0005
ff6d
002f
ffc9
003f
002a
0092
fffe
0098
ffdd
008f
0108
ff82
ff9d
fef5
0092
ffa8
015a
000e
ff59
feca
0030
00a1
fff1
fe8f
ff4a
011c
fff7
0001
fffa
0092
00ce
ffce
0033
0021
ffcf
ff9a
ff51
005c
fff5
001e
0082
00af
005b
0067
0058
ff49
0069
00bf
0082
fec2
002e
ff23
00aa
0007
0064
febb
002c
0067
0042
ffc2
0090
fea1
ffef
006d
ff11
0056
ffa9
ffe3
ff86
ffb2
ffcc
0076
ff9a
0115
ffbc
0063
008b
00cc
0018
003a
006d
fff5
fff5
00af
ffe6
00e7
ff68
0078
ffcf
ffcb
ffd4
ffd7
ff0c
ff41
ffab
ffe3
0070
ffac
000f
00f5
0015
0079
004c
0081
ffd7
fee7
00d5
00a1
0074
ffb3
ff54
0061
ffde
fff5
0031
feeb
ff64
ffe3
ffc9
006c
0002
fe6b
00ff
002a
002a
ff99
0059
003d
004f
0002
ff1f
fffe
0086
ff8a
005c
ff4d
0047
fef8
00a1
ff34
0029
ffe5
002f
0039
00a3
ff38
ffc4
fe97
009e
0026
ff93
ff93
ffd4
00c5
0078
0027
ffb1
ffe4
0127
0092
006f
ffa2
fff7
ff5d
fef2
ff20
ffc5
ff42
0086
0035
fff0
0066
00ad
0054
01df
ff95
007a
fee5
ffcb
ff1f
ffd9
0017
ffe2
ff22
0013
0122
0046
fffb
00fc
fffd
ffa8
feab
0094
0097
0034
0056
0024
0079
ff52
0056
00b2
001f
005e
003f
0057
003c
fef4
0030
ff42
0001
0014
00c7
ffb9
ffc5
0070
0166
ffc6
fe08
ffb7
0060
008b
ff45
ffb5
0035
ff13
ffda
00b0
008c
0093
ffa9
ffe1
0026
00b0
00e2
0198
0067
0059
009e
0131
001a
0062
002a
004b
00cc
002f
000c
006c
0006
fefc
ffac
0050
0013
ffe2
ffce
0054
000b
0011
ff28
ff6e
ffbf
ff72
002a
ff5b
ff2f
000b
0073
00b5
ff0c
0060
fea2
0008
0079
0041
ffca
0072
ff39
ffbe
0118
0072
004b
008b
0130
ff97
ff95
0152
012f
007f
ffcb
ff44
000d
ff69
008d
fed6
ff60
006e
ff8b
0021
0019
01e0
ffbe
00e1
ff4f
ff83
0070
005f
fe40
ffb6
fef5
000a
00b6
000c
ff61
0007
ff67
0030
0015
0052
fe43
ffb5
004d
ff92
0056
ff66
00c1
ffc5
ff3e
ff7d
ff82
0013
0095
ff76
00f5
003e
00b6
00aa
ff7e
ffd5
009b
00eb
014d
000a
ffd5
006c
00ec
006b
ff9c
003e
0036
fed9
0081
0044
002f
0047
0024
0032
ffa8
00f8
00e4
ff88
0086
0053
ffae
ffee
0021
0131
fefb
fff1
0059
000c
ff5d
00a3
ff2e
007c
0014
ff89
ff54
0051
ff3b
003b
0030
ffd0
ff25
010c
003d
006d
0069
ff9c
ff97
0059
0071
ffee
ffc3
001d
febc
009b
ff97
0053
ff2f
ff6c
0096
010f
fed6
001b
ffab
ff92
ffda
006e
ff85
0030
ff3c
001f
0007
0111
ff64
ff7d
0076
fff9
0012
ffd2
007f
ff9c
0085
ff1b
003a
ff40
ffff
ffed
fff5
015d
fed0
00fe
006c
008b
ff7b
ffd9
ff3f
0058
ffd0
ff6f
ffee
00ba
00ac
ffaf
ff2f
0064
010d
ff87
0019
003a
0055
ff4c
0009
ffaf
fffe
ff23
ffc8
002c
00aa
0019
0124
00ad
00a5
ff44
fe77
ff63
0099
ffdf
ffed
0157
ffd2
ff80
01a6
ffe0
fd5e
ffac
004d
fec0
fef6
fff6
ff7b
ff3e
ffa8
0066
ffa7
006a
ff92
ff85
ffd9
0025
0031
0113
00ad
002e
00e4
0123
fff9
0020
ff68
ffe8
0003
ffdc
00fa
0028
007b
003c
fe1c
0054
ff4d
ffb1
ff45
ffd6
0143
ff53
ff07
ff31
fefe
ff7d
ff3c
ffa5
ff53
ffb5
0038
00a6
ffff
0072
fe5e
006a
00db
00be
ff92
0014
ff8a
0044
ffd0
ff3f
000f
0055
005c
ff7a
fedf
012a
0059
ff4c
ffe7
00b9
001f
ffc7
ff14
fee7
006d
ffc0
ff7e
0012
00b4
00c4
fff0
0094
ff97
006c
00a0
00a8
fed1
007e
0029
ff89
fff8
00cf
003f
ffdd
fe49
0025
0094
ff91
fed5
ff61
ff64
ff95
003f
0084
ffb3
0044
ff49
ff96
ffb7
ffa8
ffd7
ff5d
0074
0072
ffbb
015f
fffa
0004
006f
ff31
00d3
ff88
ff5f
004f
002f
feb5
ff85
fff9
ff72
005e
0045
ff55
ffa3
fffb
00b6
003a
0047
0101
013c
003a
0007
0082
ff8f
ffdd
0048
00a6
ff59
017c
0161
00fd
fed6
ffe9
ff1d
ffa0
001f
ff64
feb5
003f
ff5b
ffdc
005d
ffd8
fe80
008c
0139
ff6b
0009
ff42
ff28
0104
ffa0
ffc2
0014
fffb
ff8d
01de
0033
0068
fef3
ffb2
ffb7
000e
feed
000f
ffa0
0091
ff87
ffe3
000d
ffe5
ff1d
00f7
fecf
0085
fff7
ffca
0019
003b
ff89
ffc5
0046
ff6f
fffc
ff16
ffc8
0134
ff51
0110
ff4b
01ff
fe31
00ec
0050
ff14
fee9
009b
00b2
0080
ff70
001c
ffa1
ffca
ff10
ffd1
ff0e
0081
ffdd
ff29
ffb2
002c
0059
fec7
0048
ff60
003b
ff8b
ff73
009c
0053
ff5a
00bc
00ef
00c1
0190
ff92
00d1
ff53
0035
0043
000f
ff75
fef6
00b2
ffd4
fdf5
ffaa
ffb5
ff06
fe11
ffa1
ff56
ffe5
001d
0100
fd75
01be
0000
00a2
0091
007b
ffac