fe7b
ffa1
ff4d
fec1
fdfa
0116
0046
0123
ffa9
007e
0196
006e
fdfd
ff02
ff52
008f
ff6d
015b
ff4f
feb2
ffe4
fd3c
0029
ff21
0059
00ca
0243
0124
00d9
fef6
01b4
001c
ff6d
ff8a
00c1
ff38
014c
01ab
0132
0046
fedc
00a5
0139
00f5
fea9
ff20
0150
ff8a
010b
00ad
ff01
fed0
0175
ff5d
0011
ffd1
019f
ffd3
010f
00ac
0110
0156
ff76
013c
ff05
000b
0105
00e9
02c9
00fa
00da
ff4c
0048
ffa7
fe29
fd35
00bc
011e
008b
000b
ffe6
01a2
00db
0109
fe5b
ffb6
01ef
ffd2
ff4b
ffbe
00da
01c0
00e0
011e
000a
fe7f
0117
0034
feab
fee6
feba
018e
fe9e
fe92
010d
fff5
fef1
00b3
fe95
01a7
0129
fffd
0095
ff96
0108
00b9
0159
00ff
0186
fde8
ff76
0015
fd7e
fd90
ff31
ffe5
fff8
ffe6
ff7d
0090
011c
01f2
ff7d
014d
febe
019c
fcc8
0140
0027
01fd
0095
ff1c
febc
fecf
fefb
0041
ff8d
ffca
005b
0092
01a4
0143
0182
000b
0064
fe2d
004f
00f0
ffaa
ff05
003f
000d
fff7
feb9
ffc0
ff6f
00a4
0155
0120
fe84
ff7a
0184
ff7d
ff97
0091
ff0b
ff5e
0070
fea9
0130
ffbd
0004
fffd
00e8
00bd
0098
01ab
0074
ff8c
011b
ffc4
fef3
ff77
fe69
ff95
00d7
ff94
ff14
00a6
0192
0085
fea6
ff8b
ff22
00ad
01a6
01d0
ffee
00e9
fe20
011a
fee8
013a
ffd3
0075
fffc
0114
ff87
016c
0007
0106
ff09
fee8
fea8
ffd9
02bb
ff0e
022a
0106
ff87
fe01
010b
0061
0083
fd38
fe05
0172
ff5d
fe94
ffcf
ff7b
ff70
ff5a
013a
fe19
005a
0096
02b6
fd40
0089
0085
009d
0068
007b
002e
0032
fffa
fea7
ffcb
0152
00b6
00cd
0052
ff92
0119
0076
fee6
0107
0138
002e
00c2
00aa
0032
0113
fe85
011a
016e
004d
fedd
fffb
0125
0086
0014
0087
ffd2
0064
ff6d
ff57
0014
0035
ff4e
01b5
ffeb
0116
0094
0220
ffb3
014d
feed
003d
011f
ffb5
fffc
ffa8
0189
feab
ff4e
018a
fe7f
ff32
01b1
fe1a
fd58
ffbb
ffc3
0154
ff15
fde8
00f5
00f7
ff79
008a
ffc6
0185
ff43
00da
fe70
ff8d
00b5
ff8b
feff
0037
ff62
00fe
004b
ff9e
019c
ff36
00cc
011d
feea
0231
00c5
fdde
012f
00a8
ff21
006a
ff82
005f
0100
00fb
ff31
0039
ffe8
0150
fecd
ff8e
00f9
ff23
ffd9
00a2
0191
00d3
ff91
ff6b
00ab
006a
004d
018b
fefd
0034
ff23
ff1a
018b
ff44
feca
feb9
0032
ff72
01cd
feee
01ee
0033
ffc7
001b
00dd
fea6
00d6
ff68
ffa0
fe03
009b
ff4a
ffe2
009b
0071
012a
01de
fffa
00bb
fedd
0075
fe3d
00d2
fe8c
012b
fef9
ffcf
fce3
0116
00e9
fdf1
ff64
005b
feff
001d
0103
fe8e
ff07
012f
001e
0131
ffc9
00e6
00b5
0110
005c
ffdb
fe46
fffd
ffc4
ff73
008b
feb4
0115
007e
ffa1
0136
ff75
fe74
fe1c
ffde
ff0b
01c7
feda
fe4d
feb2
00d5
0140
ffdc
ff2c
0041
fede
0107
ff08
0061
013c
00e2
006b
007d
00b2
0094
ff8f
fea3
002b
007e
0136
0138
febe
0173
0030
feb7
012a
feec
ffb4
0055
0113
ff41
ff17
ff5f
00a3
ffea
0046
014d
0000
015f
010d
00d4
006b
feff
0179
00bb
ffda
0166
ff1a
fe22
0024
fedc
00b2
0085
0013
0026
01c6
feb5
0187
00ab
005b
0218
002c
0059
fee5