ff07
febe
0173
ff9c
ff38
ff23
fed5
fe14
0062
feb2
01b9
fdd1
ff4d
fea5
fd77
0173
ff16
ff3a
fe7a
0049
ff84
fef5
ff52
0194
01ad
00a9
0188
0142
013a
ff1d
0076
ffe1
ff0e
ff6b
febd
00bc
0173
fd7f
febf
fdb7
fedc
00c6
fe8e
ff07
02eb
ff24
fe22
ff5c
fe2a
0225
febf
fff7
fe9e
00f7
002f
ffef
01de
fe0b
fee0
fdcd
002f
ff5c
0224
fe63
0109
fde4
fef1
01a6
fe70
fef6
fe64
ffa8
0005
fd8e
0042
ff88
fff1
fddd
01b2
ff40
fcef
fe25
ff10
00fb
00f5
01be
fe69
00f5
ff8c
0043
0216
fe7f
fe2f
fd8b
ffb4
02b4
023d
ff1e
ffda
ffca
ffd4
01a3
ff05
ffd1
fdbc
fec5
0062
028a
0010
ff4a
0090
0256
00ef
0190
fe41
0110
fe29
fefd
0107
ff29
019e
0101
fd9c
fe2b
006e
fe9e
004b
0050
00ea
00af
ffc9
fe44
ff53
0201
fe47
ffcb
01c8
ffbc
01e4
01a9
015f
ff90
01c0
018e
ffd6
fffc
fed8
006d
00f1
018f
fef7
fec6
0088
ff1a
ffff
0043
ffd5
fe5f
01c1
fe40